<blk> 0
<sos/eos> 1
▁, 2
▁. 3
▁! 4
▁? 5
▁: 6
▁; 7
▁， 8
▁。 9
▁！ 10
▁？ 11
▁： 12
▁； 13
▁、 14
▁的 15
▁我 16
▁是 17
▁你 18
▁了 19
▁一 20
▁不 21
▁这 22
▁个 23
▁有 24
▁就 25
▁们 26
▁在 27
▁他 28
▁人 29
▁么 30
▁来 31
▁说 32
▁那 33
▁要 34
▁好 35
▁啊 36
▁大 37
▁到 38
▁上 39
▁也 40
▁没 41
▁都 42
▁去 43
▁能 44
▁子 45
▁会 46
▁为 47
▁得 48
▁时 49
▁还 50
▁可 51
▁以 52
▁什 53
▁家 54
▁后 55
▁看 56
▁呢 57
▁对 58
▁事 59
▁天 60
▁下 61
▁过 62
▁想 63
▁多 64
▁小 65
▁出 66
▁自 67
▁儿 68
▁生 69
▁给 70
▁里 71
▁现 72
▁着 73
▁然 74
▁吧 75
▁样 76
▁道 77
▁吗 78
▁心 79
▁跟 80
▁中 81
▁很 82
▁点 83
▁年 84
▁和 85
▁地 86
▁怎 87
▁知 88
▁十 89
▁老 90
▁当 91
▁把 92
▁话 93
▁别 94
▁所 95
▁之 96
▁情 97
▁实 98
▁开 99
▁面 100
▁回 101
▁行 102
▁国 103
▁做 104
▁己 105
▁经 106
▁如 107
▁真 108
▁起 109
▁候 110
▁些 111
▁让 112
▁发 113
▁她 114
▁觉 115
▁但 116
▁成 117
▁定 118
▁意 119
▁二 120
▁长 121
▁最 122
▁方 123
▁三 124
▁前 125
▁因 126
▁用 127
▁呀 128
▁种 129
▁只 130
▁走 131
▁其 132
▁问 133
▁再 134
▁果 135
▁而 136
▁分 137
▁两 138
▁打 139
▁学 140
▁间 141
▁您 142
▁本 143
▁于 144
▁明 145
▁手 146
▁公 147
▁听 148
▁比 149
▁作 150
▁女 151
▁太 152
▁今 153
▁从 154
▁关 155
▁妈 156
▁同 157
▁法 158
▁动 159
▁已 160
▁见 161
▁才 162
▁孩 163
▁感 164
▁吃 165
▁常 166
▁次 167
▁它 168
▁进 169
▁先 170
▁找 171
▁身 172
▁全 173
▁理 174
▁又 175
▁力 176
▁正 177
▁主 178
▁应 179
▁高 180
▁被 181
▁钱 182
▁快 183
▁等 184
▁头 185
▁重 186
▁车 187
▁谢 188
▁日 189
▁东 190
▁放 191
▁无 192
▁工 193
▁咱 194
▁哪 195
▁五 196
▁者 197
▁像 198
▁西 199
▁该 200
▁干 201
▁相 202
▁信 203
▁机 204
▁百 205
▁特 206
▁业 207
▁活 208
▁师 209
▁边 210
▁爱 211
▁友 212
▁新 213
▁外 214
▁位 215
▁更 216
▁直 217
▁几 218
▁第 219
▁非 220
▁四 221
▁题 222
▁接 223
▁少 224
▁哥 225
▁死 226
▁完 227
▁刚 228
▁电 229
▁气 230
▁安 231
▁爸 232
▁白 233
▁告 234
▁美 235
▁解 236
▁叫 237
▁月 238
▁带 239
▁欢 240
▁谁 241
▁体 242
▁喜 243
▁部 244
▁场 245
▁姐 246
▁军 247
▁万 248
▁结 249
▁合 250
▁难 251
▁八 252
▁每 253
▁目 254
▁亲 255
▁朋 256
▁认 257
▁总 258
▁加 259
▁通 260
▁办 261
▁马 262
▁件 263
▁受 264
▁任 265
▁请 266
▁住 267
▁王 268
▁思 269
▁门 270
▁名 271
▁平 272
▁系 273
▁文 274
▁帮 275
▁路 276
▁变 277
▁记 278
▁水 279
▁九 280
▁算 281
▁将 282
▁口 283
▁男 284
▁度 285
▁报 286
▁六 287
▁张 288
▁管 289
▁够 290
▁性 291
▁表 292
▁提 293
▁何 294
▁讲 295
▁期 296
▁拿 297
▁保 298
▁嘛 299
▁司 300
▁原 301
▁始 302
▁此 303
▁诉 304
▁处 305
▁清 306
▁内 307
▁产 308
▁金 309
▁晚 310
▁早 311
▁交 312
▁离 313
▁眼 314
▁队 315
▁七 316
▁入 317
▁山 318
▁代 319
▁市 320
▁海 321
▁物 322
▁零 323
▁望 324
▁世 325
▁婚 326
▁命 327
▁越 328
▁收 329
▁向 330
▁花 331
▁房 332
▁错 333
▁节 334
▁父 335
▁反 336
▁战 337
▁买 338
▁量 339
▁或 340
▁员 341
▁号 342
▁千 343
▁怕 344
▁底 345
▁且 346
▁品 347
▁民 348
▁化 349
▁爷 350
▁并 351
▁与 352
▁服 353
▁需 354
▁资 355
▁求 356
▁教 357
▁娘 358
▁医 359
▁数 360
▁院 361
▁书 362
▁利 363
▁往 364
▁确 365
▁各 366
▁单 367
▁风 368
▁送 369
▁必 370
▁条 371
▁包 372
▁准 373
▁光 374
▁整 375
▁病 376
▁弟 377
▁嗯 378
▁计 379
▁照 380
▁强 381
▁务 382
▁影 383
▁城 384
▁夫 385
▁俩 386
▁决 387
▁声 388
▁连 389
▁乐 390
▁息 391
▁远 392
▁北 393
▁至 394
▁饭 395
▁留 396
▁宝 397
▁神 398
▁近 399
▁考 400
▁备 401
▁案 402
▁界 403
▁容 404
▁况 405
▁母 406
▁较 407
▁持 408
▁证 409
▁选 410
▁制 411
▁程 412
▁喝 413
▁害 414
▁字 415
▁失 416
▁立 417
▁台 418
▁玩 419
▁查 420
▁块 421
▁便 422
▁挺 423
▁段 424
▁周 425
▁由 426
▁句 427
▁紧 428
▁李 429
▁据 430
▁杀 431
▁南 432
▁商 433
▁识 434
▁网 435
▁式 436
▁愿 437
▁传 438
▁流 439
▁消 440
▁伤 441
▁根 442
▁演 443
▁希 444
▁故 445
▁坐 446
▁建 447
▁注 448
▁许 449
▁调 450
▁共 451
▁空 452
▁半 453
▁却 454
▁酒 455
▁联 456
▁微 457
▁言 458
▁肯 459
▁赶 460
▁跑 461
▁笑 462
▁区 463
▁岁 464
▁红 465
▁达 466
▁官 467
▁轻 468
▁易 469
▁火 470
▁线 471
▁拉 472
▁首 473
▁导 474
▁团 475
▁慢 476
▁指 477
▁写 478
▁深 479
▁论 480
▁片 481
▁改 482
▁啥 483
▁满 484
▁步 485
▁音 486
▁功 487
▁聊 488
▁客 489
▁未 490
▁格 491
▁基 492
▁睡 493
▁观 494
▁份 495
▁视 496
▁色 497
▁价 498
▁政 499
▁转 500
▁终 501
▁复 502
▁啦 503
▁呃 504
▁阿 505
▁倒 506
▁义 507
▁警 508
▁林 509
▁使 510
▁运 511
▁科 512
▁苦 513
▁待 514
▁费 515
▁随 516
▁救 517
▁试 518
▁班 519
▁敢 520
▁精 521
▁及 522
▁术 523
▁造 524
▁续 525
▁养 526
▁展 527
▁答 528
▁绝 529
▁众 530
▁站 531
▁妹 532
▁差 533
▁谈 534
▁卖 535
▁播 536
▁创 537
▁领 538
▁象 539
▁志 540
▁投 541
▁习 542
▁兄 543
▁元 544
▁皇 545
▁专 546
▁态 547
▁急 548
▁局 549
▁兴 550
▁楚 551
▁飞 552
▁护 553
▁装 554
▁热 555
▁奶 556
▁取 557
▁设 558
▁游 559
▁读 560
▁福 561
▁药 562
▁担 563
▁历 564
▁忙 565
▁规 566
▁掉 567
▁刘 568
▁切 569
▁断 570
▁尽 571
▁社 572
▁久 573
▁支 574
▁板 575
▁星 576
▁姑 577
▁曾 578
▁突 579
▁除 580
▁华 581
▁责 582
▁排 583
▁京 584
▁值 585
▁士 586
▁统 587
▁换 588
▁德 589
▁衣 590
▁组 591
▁示 592
▁脸 593
▁刻 594
▁黑 595
▁遇 596
▁虽 597
▁顾 598
▁戏 599
▁怪 600
▁懂 601
▁叔 602
▁夜 603
▁陈 604
▁亮 605
▁江 606
▁兵 607
▁负 608
▁布 609
▁青 610
▁落 611
▁推 612
▁假 613
▁类 614
▁令 615
▁技 616
▁英 617
▁质 618
▁黄 619
▁治 620
▁形 621
▁助 622
▁球 623
▁歌 624
▁参 625
▁广 626
▁继 627
▁简 628
▁画 629
▁奇 630
▁陪 631
▁阳 632
▁险 633
▁须 634
▁念 635
▁迎 636
▁幸 637
▁抓 638
▁破 639
▁另 640
▁争 641
▁竟 642
▁户 643
▁律 644
▁择 645
▁究 646
▁龙 647
▁足 648
▁店 649
▁脑 650
▁斯 651
▁党 652
▁权 653
▁约 654
▁疑 655
▁议 656
▁严 657
▁密 658
▁克 659
▁存 660
▁穿 661
▁承 662
▁校 663
▁击 664
▁际 665
▁标 666
▁云 667
▁营 668
▁察 669
▁超 670
▁食 671
▁集 672
▁级 673
▁礼 674
▁静 675
▁背 676
▁武 677
▁初 678
▁拍 679
▁梦 680
▁响 681
▁验 682
▁角 683
▁石 684
▁股 685
▁追 686
▁怀 687
▁婆 688
▁适 689
▁独 690
▁忘 691
▁血 692
▁醒 693
▁具 694
▁罪 695
▁享 696
▁毛 697
▁香 698
▁状 699
▁配 700
▁靠 701
▁语 702
▁仅 703
▁低 704
▁细 705
▁米 706
▁既 707
▁钟 708
▁极 709
▁停 710
▁味 711
▁则 712
▁油 713
▁器 714
▁楼 715
▁菜 716
▁研 717
▁互 718
▁压 719
▁贵 720
▁村 721
▁属 722
▁派 723
▁乎 724
▁坏 725
▁控 726
▁显 727
▁图 728
▁双 729
▁职 730
▁永 731
▁哈 732
▁鬼 733
▁依 734
▁料 735
▁按 736
▁府 737
▁坚 738
▁某 739
▁甚 740
▁居 741
▁练 742
▁顺 743
▁模 744
▁即 745
▁州 746
▁引 747
▁乱 748
▁速 749
▁庭 750
▁朝 751
▁室 752
▁似 753
▁付 754
▁划 755
▁尔 756
▁境 757
▁犯 758
▁烦 759
▁环 760
▁伙 761
▁巴 762
▁春 763
▁古 764
▁妇 765
▁势 766
▁款 767
▁增 768
▁财 769
▁河 770
▁虑 771
▁守 772
▁汉 773
▁枪 774
▁妻 775
▁爹 776
▁弄 777
▁委 778
▁企 779
▁冲 780
▁置 781
▁麻 782
▁育 783
▁项 784
▁防 785
▁胡 786
▁杨 787
▁致 788
▁辈 789
▁括 790
▁毕 791
▁卫 792
▁修 793
▁史 794
▁型 795
▁牌 796
▁嘴 797
▁苏 798
▁群 799
▁举 800
▁痛 801
▁座 802
▁概 803
▁搞 804
▁围 805
▁土 806
▁毒 807
▁唱 808
▁冷 809
▁累 810
▁玉 811
▁获 812
▁误 813
▁跳 814
▁脚 815
▁雨 816
▁剧 817
▁休 818
▁皮 819
▁止 820
▁济 821
▁肉 822
▁丽 823
▁借 824
▁铁 825
▁牛 826
▁哭 827
▁招 828
▁闹 829
▁优 830
▁银 831
▁温 832
▁狗 833
▁退 834
▁洗 835
▁拜 836
▁否 837
▁票 838
▁偷 839
▁抱 840
▁博 841
▁般 842
▁效 843
▁套 844
▁维 845
▁普 846
▁康 847
▁富 848
▁宫 849
▁索 850
▁罗 851
▁堂 852
▁智 853
▁省 854
▁介 855
▁孙 856
▁灵 857
▁评 858
▁藏 859
▁称 860
▁课 861
▁货 862
▁姨 863
▁艺 864
▁骗 865
▁雪 866
▁赛 867
▁景 868
▁昨 869
▁健 870
▁鱼 871
▁激 872
▁危 873
▁熟 874
▁圈 875
▁闻 876
▁监 877
▁替 878
▁君 879
▁恋 880
▁良 881
▁掌 882
▁草 883
▁松 884
▁供 885
▁努 886
▁例 887
▁短 888
▁帝 889
▁姓 890
▁率 891
▁族 892
▁亿 893
▁赵 894
▁蛋 895
▁判 896
▁预 897
▁频 898
▁卡 899
▁架 900
▁纪 901
▁弃 902
▁秀 903
▁兰 904
▁检 905
▁层 906
▁伴 907
▁抗 908
▁讨 909
▁源 910
▁夏 911
▁咋 912
▁惊 913
▁录 914
▁善 915
▁补 916
▁刀 917
▁充 918
▁升 919
▁章 920
▁午 921
▁若 922
▁私 923
▁吴 924
▁素 925
▁旅 926
▁临 927
▁挑 928
▁唐 929
▁露 930
▁树 931
▁斗 932
▁舞 933
▁左 934
▁叶 935
▁副 936
▁晓 937
▁厂 938
▁弹 939
▁印 940
▁秘 941
▁屋 942
▁田 943
▁木 944
▁困 945
▁园 946
▁封 947
▁逃 948
▁批 949
▁馆 950
▁疼 951
▁败 952
▁陆 953
▁敌 954
▁散 955
▁采 956
▁翻 957
▁缺 958
▁胜 959
▁免 960
▁销 961
▁鸡 962
▁降 963
▁波 964
▁测 965
▁限 966
▁释 967
▁忍 968
▁归 969
▁床 970
▁餐 971
▁茶 972
▁码 973
▁宁 974
▁乡 975
▁辛 976
▁彩 977
▁亚 978
▁浪 979
▁漂 980
▁庆 981
▁训 982
▁范 983
▁烧 984
▁词 985
▁吵 986
▁媳 987
▁探 988
▁余 989
▁恐 990
▁积 991
▁农 992
▁遍 993
▁舒 994
▁顶 995
▁构 996
▁呼 997
▁丝 998
▁执 999
▁雅 1000
▁惯 1001
▁右 1002
▁脱 1003
▁恩 1004
▁野 1005
▁折 1006
▁趣 1007
▁笔 1008
▁谓 1009
▁盘 1010
▁贝 1011
▁宣 1012
▁绍 1013
▁嘉 1014
▁宋 1015
▁抢 1016
▁嫌 1017
▁尊 1018
▁碰 1019
▁绪 1020
▁丢 1021
▁厉 1022
▁沙 1023
▁轮 1024
▁施 1025
▁织 1026
▁托 1027
▁县 1028
▁策 1029
▁杯 1030
▁逼 1031
▁傻 1032
▁束 1033
▁街 1034
▁疗 1035
▁益 1036
▁骨 1037
▁迷 1038
▁姻 1039
▁恶 1040
▁默 1041
▁寻 1042
▁搜 1043
▁哦 1044
▁材 1045
▁吸 1046
▁劳 1047
▁勇 1048
▁占 1049
▁暴 1050
▁船 1051
▁徐 1052
▁虎 1053
▁融 1054
▁异 1055
▁审 1056
▁攻 1057
▁雷 1058
▁稳 1059
▁呗 1060
▁输 1061
▁睛 1062
▁臣 1063
▁端 1064
▁威 1065
▁秋 1066
▁欧 1067
▁冰 1068
▁韩 1069
▁减 1070
▁操 1071
▁混 1072
▁汽 1073
▁暗 1074
▁隐 1075
▁嫂 1076
▁沉 1077
▁烟 1078
▁顿 1079
▁凭 1080
▁洋 1081
▁嫁 1082
▁购 1083
▁粉 1084
▁遗 1085
▁杂 1086
▁协 1087
▁尝 1088
▁键 1089
▁亡 1090
▁秦 1091
▁纸 1092
▁拥 1093
▁革 1094
▁猫 1095
▁伯 1096
▁祝 1097
▁签 1098
▁傅 1099
▁牙 1100
▁湖 1101
▁莫 1102
▁杰 1103
▁旁 1104
▁港 1105
▁劲 1106
▁宗 1107
▁偏 1108
▁触 1109
▁唯 1110
▁吓 1111
▁辆 1112
▁沈 1113
▁列 1114
▁梅 1115
▁祖 1116
▁舍 1117
▁尤 1118
▁赚 1119
▁疫 1120
▁腾 1121
▁拼 1122
▁奖 1123
▁刺 1124
▁齐 1125
▁诚 1126
▁媒 1127
▁戴 1128
▁账 1129
▁炸 1130
▁骂 1131
▁避 1132
▁麦 1133
▁爆 1134
▁域 1135
▁烈 1136
▁暖 1137
▁季 1138
▁猜 1139
▁佳 1140
▁净 1141
▁腿 1142
▁磨 1143
▁曲 1144
▁虚 1145
▁阵 1146
▁荣 1147
▁访 1148
▁核 1149
▁鲜 1150
▁阶 1151
▁镇 1152
▁灯 1153
▁估 1154
▁剩 1155
▁硬 1156
▁租 1157
▁敬 1158
▁损 1159
▁惜 1160
▁挂 1161
▁董 1162
▁巨 1163
▁忆 1164
▁登 1165
▁丈 1166
▁帅 1167
▁童 1168
▁耳 1169
▁央 1170
▁软 1171
▁移 1172
▁略 1173
▁额 1174
▁厅 1175
▁挥 1176
▁透 1177
▁络 1178
▁弱 1179
▁珍 1180
▁恨 1181
▁巧 1182
▁丁 1183
▁谋 1184
▁孤 1185
▁豆 1186
▁诗 1187
▁冒 1188
▁狼 1189
▁渐 1190
▁峰 1191
▁售 1192
▁凡 1193
▁聚 1194
▁洞 1195
▁抽 1196
▁劝 1197
▁闭 1198
▁摆 1199
▁冬 1200
▁凶 1201
▁魔 1202
▁灭 1203
▁雄 1204
▁挣 1205
▁搬 1206
▁龄 1207
▁朱 1208
▁编 1209
▁航 1210
▁席 1211
▁驾 1212
▁鼓 1213
▁授 1214
▁握 1215
▁隔 1216
▁猪 1217
▁仙 1218
▁颜 1219
▁镜 1220
▁胖 1221
▁赢 1222
▁仇 1223
▁晨 1224
▁欺 1225
▁刑 1226
▁谷 1227
▁旦 1228
▁亏 1229
▁盖 1230
▁症 1231
▁喊 1232
▁蓝 1233
▁讯 1234
▁殿 1235
▁梁 1236
▁躲 1237
▁旧 1238
▁针 1239
▁箱 1240
▁丰 1241
▁洲 1242
▁鞋 1243
▁征 1244
▁蒙 1245
▁伟 1246
▁袋 1247
▁庄 1248
▁患 1249
▁怨 1250
▁佛 1251
▁稍 1252
▁朵 1253
▁纳 1254
▁吉 1255
▁川 1256
▁典 1257
▁迹 1258
▁瑞 1259
▁废 1260
▁搭 1261
▁涨 1262
▁汤 1263
▁启 1264
▁桌 1265
▁摸 1266
▁赔 1267
▁宜 1268
▁纯 1269
▁贴 1270
▁聪 1271
▁熊 1272
▁延 1273
▁版 1274
▁瓶 1275
▁缘 1276
▁距 1277
▁甜 1278
▁析 1279
▁盛 1280
▁孕 1281
▁彻 1282
▁桥 1283
▁尚 1284
▁染 1285
▁撞 1286
▁途 1287
▁沟 1288
▁疯 1289
▁敏 1290
▁瞧 1291
▁漫 1292
▁胆 1293
▁诺 1294
▁刷 1295
▁饿 1296
▁仍 1297
▁喂 1298
▁辞 1299
▁迟 1300
▁淡 1301
▁郑 1302
▁歉 1303
▁宾 1304
▁扰 1305
▁圆 1306
▁赞 1307
▁肚 1308
▁慧 1309
▁泪 1310
▁吹 1311
▁拖 1312
▁遭 1313
▁穷 1314
▁罚 1315
▁悔 1316
▁绿 1317
▁忽 1318
▁唉 1319
▁毫 1320
▁绩 1321
▁暂 1322
▁射 1323
▁岛 1324
▁拾 1325
▁珠 1326
▁欠 1327
▁忠 1328
▁陷 1329
▁阴 1330
▁尼 1331
▁悲 1332
▁糊 1333
▁撤 1334
▁徒 1335
▁剑 1336
▁币 1337
▁娜 1338
▁违 1339
▁泡 1340
▁仗 1341
▁粮 1342
▁培 1343
▁趟 1344
▁菲 1345
▁拒 1346
▁棒 1347
▁脾 1348
▁赏 1349
▁窗 1350
▁宇 1351
▁闲 1352
▁附 1353
▁踏 1354
▁彼 1355
▁涉 1356
▁撒 1357
▁锁 1358
▁魂 1359
▁羊 1360
▁述 1361
▁屈 1362
▁库 1363
▁滚 1364
▁凉 1365
▁颗 1366
▁寒 1367
▁呐 1368
▁墙 1369
▁娃 1370
▁序 1371
▁迪 1372
▁丹 1373
▁扬 1374
▁瞎 1375
▁递 1376
▁凤 1377
▁碗 1378
▁屁 1379
▁锅 1380
▁奔 1381
▁幅 1382
▁债 1383
▁糖 1384
▁奋 1385
▁汇 1386
▁圣 1387
▁订 1388
▁偶 1389
▁残 1390
▁宽 1391
▁狂 1392
▁鼠 1393
▁狠 1394
▁幕 1395
▁固 1396
▁竞 1397
▁蜜 1398
▁吐 1399
▁摄 1400
▁骑 1401
▁篇 1402
▁毁 1403
▁尾 1404
▁摇 1405
▁奥 1406
▁厚 1407
▁妖 1408
▁禁 1409
▁逐 1410
▁均 1411
▁尸 1412
▁冠 1413
▁阅 1414
▁辑 1415
▁捕 1416
▁载 1417
▁郭 1418
▁俺 1419
▁诊 1420
▁扎 1421
▁欲 1422
▁鸟 1423
▁柔 1424
▁迫 1425
▁豪 1426
▁踪 1427
▁扔 1428
▁碎 1429
▁末 1430
▁娶 1431
▁扫 1432
▁朕 1433
▁励 1434
▁乔 1435
▁闺 1436
▁档 1437
▁厨 1438
▁倍 1439
▁湾 1440
▁郎 1441
▁幼 1442
▁纷 1443
▁奴 1444
▁阻 1445
▁饮 1446
▁怒 1447
▁妙 1448
▁琴 1449
▁曹 1450
▁脏 1451
▁牵 1452
▁瓜 1453
▁滴 1454
▁炮 1455
▁缓 1456
▁含 1457
▁献 1458
▁柜 1459
▁仔 1460
▁艾 1461
▁潜 1462
▁赌 1463
▁震 1464
▁础 1465
▁添 1466
▁兔 1467
▁焦 1468
▁躺 1469
▁森 1470
▁肥 1471
▁孝 1472
▁洪 1473
▁偿 1474
▁悉 1475
▁撑 1476
▁甘 1477
▁桃 1478
▁苹 1479
▁魏 1480
▁鲁 1481
▁池 1482
▁狱 1483
▁厌 1484
▁纠 1485
▁朗 1486
▁贷 1487
▁铺 1488
▁殊 1489
▁坦 1490
▁爬 1491
▁擦 1492
▁酸 1493
▁钢 1494
▁咖 1495
▁瞒 1496
▁蛮 1497
▁谅 1498
▁耐 1499
▁申 1500
▁夸 1501
▁欣 1502
▁诶 1503
▁驶 1504
▁屏 1505
▁烂 1506
▁凌 1507
▁胎 1508
▁甲 1509
▁仪 1510
▁貌 1511
▁番 1512
▁涂 1513
▁抬 1514
▁舅 1515
▁扯 1516
▁鹿 1517
▁摩 1518
▁诸 1519
▁秒 1520
▁泽 1521
▁埋 1522
▁蒋 1523
▁隆 1524
▁赖 1525
▁奸 1526
▁咬 1527
▁恢 1528
▁宿 1529
▁乖 1530
▁邀 1531
▁抵 1532
▁臭 1533
▁闪 1534
▁莉 1535
▁熬 1536
▁链 1537
▁盯 1538
▁侦 1539
▁灾 1540
▁堆 1541
▁灰 1542
▁盾 1543
▁卷 1544
▁截 1545
▁障 1546
▁恰 1547
▁佩 1548
▁戒 1549
▁莲 1550
▁裁 1551
▁芬 1552
▁戚 1553
▁匪 1554
▁滑 1555
▁趁 1556
▁询 1557
▁绑 1558
▁辣 1559
▁挖 1560
▁俗 1561
▁祸 1562
▁符 1563
▁扣 1564
▁插 1565
▁仁 1566
▁壁 1567
▁腰 1568
▁斤 1569
▁燕 1570
▁筑 1571
▁柱 1572
▁夺 1573
▁援 1574
▁映 1575
▁壮 1576
▁杜 1577
▁摔 1578
▁润 1579
▁恭 1580
▁乌 1581
▁慰 1582
▁啡 1583
▁著 1584
▁井 1585
▁牢 1586
▁跌 1587
▁荐 1588
▁拔 1589
▁惹 1590
▁侯 1591
▁玲 1592
▁炎 1593
▁胸 1594
▁旗 1595
▁牲 1596
▁喽 1597
▁涛 1598
▁衡 1599
▁矛 1600
▁伍 1601
▁贤 1602
▁惨 1603
▁糟 1604
▁慌 1605
▁伏 1606
▁醉 1607
▁仓 1608
▁拆 1609
▁乘 1610
▁疾 1611
▁鼻 1612
▁潮 1613
▁予 1614
▁奉 1615
▁伦 1616
▁劫 1617
▁伊 1618
▁怜 1619
▁孟 1620
▁肺 1621
▁忧 1622
▁倾 1623
▁矩 1624
▁荒 1625
▁奏 1626
▁塔 1627
▁塞 1628
▁迅 1629
▁轨 1630
▁瞬 1631
▁丫 1632
▁狐 1633
▁叛 1634
▁繁 1635
▁眠 1636
▁谱 1637
▁孔 1638
▁悄 1639
▁泰 1640
▁姜 1641
▁侵 1642
▁妃 1643
▁柳 1644
▁冯 1645
▁洛 1646
▁岸 1647
▁凯 1648
▁陛 1649
▁幺 1650
▁仿 1651
▁氏 1652
▁窝 1653
▁曼 1654
▁挡 1655
▁浩 1656
▁盟 1657
▁轩 1658
▁牺 1659
▁贫 1660
▁绕 1661
▁谎 1662
▁措 1663
▁扶 1664
▁梯 1665
▁炼 1666
▁勤 1667
▁霸 1668
▁横 1669
▁罢 1670
▁呆 1671
▁税 1672
▁桂 1673
▁哎 1674
▁慕 1675
▁植 1676
▁允 1677
▁荡 1678
▁洁 1679
▁肖 1680
▁耗 1681
▁贼 1682
▁艰 1683
▁贺 1684
▁幻 1685
▁饱 1686
▁胃 1687
▁袭 1688
▁廷 1689
▁泥 1690
▁丧 1691
▁缩 1692
▁砸 1693
▁姥 1694
▁拦 1695
▁扮 1696
▁糕 1697
▁肤 1698
▁猴 1699
▁脆 1700
▁炒 1701
▁耀 1702
▁盗 1703
▁邓 1704
▁扩 1705
▁纵 1706
▁振 1707
▁敲 1708
▁鹏 1709
▁姆 1710
▁湿 1711
▁丑 1712
▁召 1713
▁苗 1714
▁伸 1715
▁惑 1716
▁碍 1717
▁萨 1718
▁瘦 1719
▁闯 1720
▁迁 1721
▁坑 1722
▁弯 1723
▁卑 1724
▁尖 1725
▁遥 1726
▁侠 1727
▁犹 1728
▁押 1729
▁冤 1730
▁钻 1731
▁汗 1732
▁闷 1733
▁邻 1734
▁淘 1735
▁抛 1736
▁妆 1737
▁贾 1738
▁侧 1739
▁傲 1740
▁描 1741
▁耍 1742
▁猛 1743
▁薇 1744
▁裤 1745
▁憾 1746
▁督 1747
▁贸 1748
▁墨 1749
▁勒 1750
▁薄 1751
▁嘞 1752
▁渡 1753
▁紫 1754
▁悟 1755
▁锦 1756
▁溜 1757
▁逆 1758
▁惠 1759
▁辉 1760
▁贪 1761
▁圾 1762
▁垃 1763
▁券 1764
▁燃 1765
▁虫 1766
▁悠 1767
▁伪 1768
▁尿 1769
▁懒 1770
▁俊 1771
▁寄 1772
▁歇 1773
▁盒 1774
▁潘 1775
▁储 1776
▁愈 1777
▁脉 1778
▁粗 1779
▁返 1780
▁昌 1781
▁泉 1782
▁蔡 1783
▁愧 1784
▁赤 1785
▁岳 1786
▁婷 1787
▁猎 1788
▁饼 1789
▁肩 1790
▁勾 1791
▁巡 1792
▁竹 1793
▁催 1794
▁陌 1795
▁踩 1796
▁促 1797
▁扭 1798
▁堵 1799
▁酷 1800
▁芳 1801
▁逛 1802
▁陵 1803
▁耽 1804
▁凑 1805
▁寿 1806
▁缝 1807
▁剪 1808
▁郁 1809
▁宅 1810
▁抚 1811
▁筹 1812
▁沿 1813
▁烤 1814
▁奈 1815
▁挨 1816
▁晋 1817
▁崩 1818
▁浮 1819
▁阁 1820
▁彭 1821
▁裂 1822
▁眉 1823
▁崇 1824
▁桑 1825
▁辩 1826
▁漏 1827
▁稀 1828
▁液 1829
▁汪 1830
▁袁 1831
▁掩 1832
▁浑 1833
▁坡 1834
▁晕 1835
▁缠 1836
▁仰 1837
▁挤 1838
▁睁 1839
▁羽 1840
▁岗 1841
▁捡 1842
▁墓 1843
▁综 1844
▁矿 1845
▁妥 1846
▁厕 1847
▁辱 1848
▁惧 1849
▁逗 1850
▁帽 1851
▁寸 1852
▁搁 1853
▁跨 1854
▁渴 1855
▁饰 1856
▁璃 1857
▁琳 1858
▁爽 1859
▁愤 1860
▁饶 1861
▁卧 1862
▁誓 1863
▁滋 1864
▁鉴 1865
▁腐 1866
▁鸭 1867
▁蛇 1868
▁妮 1869
▁莱 1870
▁哟 1871
▁钥 1872
▁甄 1873
▁肠 1874
▁畅 1875
▁慎 1876
▁悬 1877
▁逻 1878
▁胁 1879
▁辰 1880
▁呈 1881
▁棋 1882
▁寨 1883
▁覆 1884
▁萌 1885
▁姚 1886
▁津 1887
▁笨 1888
▁轰 1889
▁乏 1890
▁匙 1891
▁摊 1892
▁陶 1893
▁恼 1894
▁昏 1895
▁抑 1896
▁姿 1897
▁愁 1898
▁誉 1899
▁椅 1900
▁羞 1901
▁澡 1902
▁踢 1903
▁晶 1904
▁萧 1905
▁箭 1906
▁宠 1907
▁罩 1908
▁羡 1909
▁亦 1910
▁祥 1911
▁串 1912
▁昆 1913
▁煮 1914
▁疏 1915
▁纹 1916
▁泄 1917
▁痕 1918
▁喷 1919
▁册 1920
▁跃 1921
▁卢 1922
▁岩 1923
▁跪 1924
▁兽 1925
▁桶 1926
▁飘 1927
▁漠 1928
▁堪 1929
▁哄 1930
▁寂 1931
▁崔 1932
▁腹 1933
▁癌 1934
▁拳 1935
▁驻 1936
▁拨 1937
▁霍 1938
▁诞 1939
▁捐 1940
▁御 1941
▁榜 1942
▁唤 1943
▁荷 1944
▁径 1945
▁署 1946
▁锋 1947
▁玛 1948
▁匆 1949
▁恒 1950
▁吕 1951
▁邮 1952
▁圳 1953
▁黎 1954
▁掏 1955
▁莎 1956
▁寞 1957
▁佐 1958
▁诈 1959
▁盐 1960
▁牧 1961
▁叹 1962
▁尬 1963
▁匹 1964
▁狸 1965
▁膀 1966
▁谨 1967
▁尘 1968
▁驱 1969
▁乳 1970
▁晒 1971
▁宴 1972
▁辜 1973
▁哲 1974
▁铜 1975
▁薪 1976
▁盆 1977
▁割 1978
▁忌 1979
▁旋 1980
▁翼 1981
▁哀 1982
▁咨 1983
▁遵 1984
▁夹 1985
▁侣 1986
▁译 1987
▁胞 1988
▁浅 1989
▁邦 1990
▁俄 1991
▁弗 1992
▁豫 1993
▁甭 1994
▁乃 1995
▁扛 1996
▁杭 1997
▁瓦 1998
▁槽 1999
▁污 2000
▁琢 2001
▁尴 2002
▁枝 2003
▁详 2004
▁佑 2005
▁柴 2006
▁盼 2007
▁抖 2008
▁惩 2009
▁捷 2010
▁葬 2011
▁贡 2012
▁艳 2013
▁塑 2014
▁茫 2015
▁叨 2016
▁拐 2017
▁浓 2018
▁捉 2019
▁憋 2020
▁稿 2021
▁苍 2022
▁葛 2023
▁扑 2024
▁娱 2025
▁赋 2026
▁杆 2027
▁绘 2028
▁聆 2029
▁肌 2030
▁婴 2031
▁摘 2032
▁岂 2033
▁呵 2034
▁冻 2035
▁泳 2036
▁揭 2037
▁坤 2038
▁盈 2039
▁毅 2040
▁撕 2041
▁娇 2042
▁唠 2043
▁宏 2044
▁吊 2045
▁籍 2046
▁楠 2047
▁肃 2048
▁抹 2049
▁玄 2050
▁湘 2051
▁迈 2052
▁酱 2053
▁骄 2054
▁咐 2055
▁扇 2056
▁幽 2057
▁疲 2058
▁邪 2059
▁吞 2060
▁趋 2061
▁尺 2062
▁玻 2063
▁溃 2064
▁诱 2065
▁翠 2066
▁兼 2067
▁辅 2068
▁岭 2069
▁栏 2070
▁柏 2071
▁址 2072
▁寺 2073
▁逢 2074
▁琪 2075
▁慈 2076
▁愣 2077
▁契 2078
▁渠 2079
▁齿 2080
▁薛 2081
▁拟 2082
▁填 2083
▁坛 2084
▁抄 2085
▁痴 2086
▁役 2087
▁绳 2088
▁擅 2089
▁晃 2090
▁斌 2091
▁愉 2092
▁届 2093
▁悦 2094
▁旨 2095
▁砍 2096
▁弥 2097
▁挽 2098
▁肝 2099
▁鸣 2100
▁庙 2101
▁烫 2102
▁聘 2103
▁皆 2104
▁婶 2105
▁舌 2106
▁枉 2107
▁赫 2108
▁蓉 2109
▁瞅 2110
▁阔 2111
▁俱 2112
▁循 2113
▁鸿 2114
▁彪 2115
▁伺 2116
▁堡 2117
▁谦 2118
▁剂 2119
▁洒 2120
▁赴 2121
▁妨 2122
▁磊 2123
▁嘱 2124
▁蝶 2125
▁兆 2126
▁绣 2127
▁豹 2128
▁锻 2129
▁篮 2130
▁陕 2131
▁霉 2132
▁涵 2133
▁疆 2134
▁蠢 2135
▁丸 2136
▁铃 2137
▁浙 2138
▁萝 2139
▁庞 2140
▁泛 2141
▁芝 2142
▁煤 2143
▁甩 2144
▁氛 2145
▁页 2146
▁逸 2147
▁袖 2148
▁携 2149
▁躁 2150
▁夕 2151
▁匠 2152
▁蹈 2153
▁坊 2154
▁雾 2155
▁蹲 2156
▁颠 2157
▁脂 2158
▁塌 2159
▁棵 2160
▁鹰 2161
▁澳 2162
▁哇 2163
▁纽 2164
▁筋 2165
▁脖 2166
▁棉 2167
▁渣 2168
▁寡 2169
▁践 2170
▁侄 2171
▁披 2172
▁魅 2173
▁虹 2174
▁肿 2175
▁胶 2176
▁霞 2177
▁罐 2178
▁晴 2179
▁卿 2180
▁拓 2181
▁耻 2182
▁宪 2183
▁砖 2184
▁歪 2185
▁兜 2186
▁衰 2187
▁歹 2188
▁捧 2189
▁雕 2190
▁穆 2191
▁栋 2192
▁瑶 2193
▁毙 2194
▁衷 2195
▁膜 2196
▁囊 2197
▁垫 2198
▁莹 2199
▁吻 2200
▁嘟 2201
▁舰 2202
▁虾 2203
▁壳 2204
▁勉 2205
▁穴 2206
▁裙 2207
▁旺 2208
▁柯 2209
▁磕 2210
▁贩 2211
▁腻 2212
▁卜 2213
▁蹦 2214
▁茹 2215
▁驴 2216
▁臂 2217
▁删 2218
▁菌 2219
▁妾 2220
▁蜂 2221
▁祭 2222
▁菊 2223
▁咸 2224
▁淑 2225
▁笼 2226
▁涯 2227
▁碧 2228
▁骚 2229
▁宙 2230
▁皓 2231
▁赐 2232
▁晰 2233
▁腔 2234
▁龟 2235
▁泼 2236
▁鹅 2237
▁啪 2238
▁巾 2239
▁沾 2240
▁炉 2241
▁醋 2242
▁澜 2243
▁朴 2244
▁棍 2245
▁伞 2246
▁雀 2247
▁赠 2248
▁妞 2249
▁淋 2250
▁刮 2251
▁汁 2252
▁椒 2253
▁埃 2254
▁嚷 2255
▁盲 2256
▁窃 2257
▁辽 2258
▁贱 2259
▁滩 2260
▁昭 2261
▁贯 2262
▁珊 2263
▁涌 2264
▁辨 2265
▁捞 2266
▁仲 2267
▁拘 2268
▁碑 2269
▁侍 2270
▁剿 2271
▁搅 2272
▁狮 2273
▁藤 2274
▁旭 2275
▁翅 2276
▁滨 2277
▁禀 2278
▁瑟 2279
▁遮 2280
▁斩 2281
▁攒 2282
▁犬 2283
▁挫 2284
▁僧 2285
▁吩 2286
▁渊 2287
▁蒂 2288
▁萍 2289
▁庸 2290
▁蓄 2291
▁鼎 2292
▁咪 2293
▁姬 2294
▁溪 2295
▁郡 2296
▁镖 2297
▁怡 2298
▁杉 2299
▁畏 2300
▁瓷 2301
▁枚 2302
▁煎 2303
▁劣 2304
▁饺 2305
▁妄 2306
▁卓 2307
▁蔽 2308
▁蒸 2309
▁垂 2310
▁嘲 2311
▁慨 2312
▁谊 2313
▁蹭 2314
▁逮 2315
▁锐 2316
▁钉 2317
▁舟 2318
▁沃 2319
▁凝 2320
▁翔 2321
▁颈 2322
▁靖 2323
▁灌 2324
▁膊 2325
▁崖 2326
▁娟 2327
▁胳 2328
▁铭 2329
▁灿 2330
▁亭 2331
▁粒 2332
▁卸 2333
▁咕 2334
▁坎 2335
▁攀 2336
▁婿 2337
▁奢 2338
▁茂 2339
▁趴 2340
▁耿 2341
▁捏 2342
▁怖 2343
▁浴 2344
▁婉 2345
▁煌 2346
▁霖 2347
▁揍 2348
▁昂 2349
▁壶 2350
▁驰 2351
▁械 2352
▁卦 2353
▁粥 2354
▁尹 2355
▁瘾 2356
▁雇 2357
▁翰 2358
▁肆 2359
▁曦 2360
▁寇 2361
▁厢 2362
▁杠 2363
▁屠 2364
▁芒 2365
▁谣 2366
▁沫 2367
▁掘 2368
▁酬 2369
▁讼 2370
▁乾 2371
▁玫 2372
▁瑰 2373
▁惦 2374
▁逊 2375
▁儒 2376
▁肾 2377
▁粹 2378
▁愚 2379
▁渔 2380
▁暑 2381
▁伐 2382
▁潇 2383
▁喘 2384
▁敦 2385
▁斥 2386
▁翁 2387
▁帖 2388
▁纱 2389
▁梳 2390
▁缴 2391
▁茅 2392
▁谭 2393
▁氧 2394
▁遣 2395
▁履 2396
▁刹 2397
▁枕 2398
▁婢 2399
▁徽 2400
▁轿 2401
▁寓 2402
▁咽 2403
▁嗓 2404
▁叉 2405
▁捣 2406
▁裹 2407
▁览 2408
▁拯 2409
▁疚 2410
▁蜀 2411
▁丛 2412
▁框 2413
▁斑 2414
▁宵 2415
▁郝 2416
▁蛙 2417
▁熙 2418
▁祁 2419
▁哑 2420
▁葱 2421
▁唇 2422
▁韦 2423
▁媛 2424
▁魄 2425
▁锤 2426
▁绵 2427
▁炫 2428
▁吨 2429
▁稻 2430
▁碌 2431
▁刊 2432
▁漆 2433
▁搏 2434
▁讶 2435
▁痒 2436
▁枫 2437
▁妒 2438
▁冥 2439
▁郊 2440
▁爵 2441
▁逝 2442
▁栽 2443
▁叠 2444
▁蚁 2445
▁裕 2446
▁剥 2447
▁帕 2448
▁谐 2449
▁巫 2450
▁颇 2451
▁娥 2452
▁廊 2453
▁蕾 2454
▁丘 2455
▁丞 2456
▁葡 2457
▁坠 2458
▁鸦 2459
▁糗 2460
▁虐 2461
▁唬 2462
▁屎 2463
▁顽 2464
▁巷 2465
▁硅 2466
▁罕 2467
▁殖 2468
▁嘿 2469
▁韵 2470
▁歧 2471
▁垮 2472
▁馈 2473
▁淮 2474
▁昊 2475
▁宰 2476
▁钦 2477
▁霜 2478
▁兑 2479
▁萄 2480
▁塘 2481
▁胀 2482
▁樱 2483
▁枯 2484
▁咳 2485
▁窑 2486
▁募 2487
▁缸 2488
▁仑 2489
▁昧 2490
▁氓 2491
▁恕 2492
▁叮 2493
▁吼 2494
▁坟 2495
▁轴 2496
▁贞 2497
▁赎 2498
▁嫩 2499
▁帆 2500
▁蚂 2501
▁僵 2502
▁颖 2503
▁噜 2504
▁咒 2505
▁琐 2506
▁勃 2507
▁芯 2508
▁绸 2509
▁哼 2510
▁仨 2511
▁挪 2512
▁狡 2513
▁禅 2514
▁粘 2515
▁雯 2516
▁扒 2517
▁恳 2518
▁蔬 2519
▁匈 2520
▁钓 2521
▁桐 2522
▁菇 2523
▁哒 2524
▁稚 2525
▁膏 2526
▁纲 2527
▁狄 2528
▁廉 2529
▁硕 2530
▁衙 2531
▁艘 2532
▁廖 2533
▁蟹 2534
▁腊 2535
▁邱 2536
▁缉 2537
▁曝 2538
▁桩 2539
▁啤 2540
▁嫉 2541
▁棚 2542
▁矮 2543
▁汰 2544
▁衍 2545
▁拽 2546
▁削 2547
▁彤 2548
▁斜 2549
▁樊 2550
▁揉 2551
▁馨 2552
▁钩 2553
▁浦 2554
▁肢 2555
▁敷 2556
▁喻 2557
▁鞭 2558
▁耕 2559
▁瞪 2560
▁掐 2561
▁屡 2562
▁榴 2563
▁勋 2564
▁泊 2565
▁竭 2566
▁鹤 2567
▁溢 2568
▁淳 2569
▁倩 2570
▁驳 2571
▁抠 2572
▁筒 2573
▁捅 2574
▁窄 2575
▁鄙 2576
▁嗦 2577
▁袍 2578
▁劈 2579
▁炖 2580
▁裸 2581
▁贬 2582
▁敞 2583
▁嘎 2584
▁淹 2585
▁耶 2586
▁秩 2587
▁舱 2588
▁厦 2589
▁叙 2590
▁孽 2591
▁筷 2592
▁浇 2593
▁饥 2594
▁噩 2595
▁蚊 2596
▁兮 2597
▁皱 2598
▁侃 2599
▁辟 2600
▁弊 2601
▁袜 2602
▁吾 2603
▁俘 2604
▁芸 2605
▁夷 2606
▁芦 2607
▁倡 2608
▁囚 2609
▁琦 2610
▁哨 2611
▁巢 2612
▁烛 2613
▁帐 2614
▁燥 2615
▁讽 2616
▁俞 2617
▁馅 2618
▁柿 2619
▁墅 2620
▁妍 2621
▁瘤 2622
▁沦 2623
▁衬 2624
▁瑜 2625
▁蒜 2626
▁蛛 2627
▁勿 2628
▁窟 2629
▁沛 2630
▁磁 2631
▁狭 2632
▁栈 2633
▁懵 2634
▁酿 2635
▁戈 2636
▁邵 2637
▁龚 2638
▁衫 2639
▁勺 2640
▁哗 2641
▁叽 2642
▁畜 2643
▁爪 2644
▁惫 2645
▁颁 2646
▁浸 2647
▁摧 2648
▁勘 2649
▁惕 2650
▁蔓 2651
▁馒 2652
▁陀 2653
▁挠 2654
▁豁 2655
▁帘 2656
▁淀 2657
▁藩 2658
▁蜡 2659
▁凳 2660
▁蘑 2661
▁琼 2662
▁棺 2663
▁蝴 2664
▁骆 2665
▁掰 2666
▁枣 2667
▁遂 2668
▁飙 2669
▁咧 2670
▁掀 2671
▁杏 2672
▁梨 2673
▁嗑 2674
▁棠 2675
▁绽 2676
▁捆 2677
▁舆 2678
▁肇 2679
▁葩 2680
▁呦 2681
▁膝 2682
▁鹊 2683
▁揣 2684
▁瓣 2685
▁靓 2686
▁卵 2687
▁鲍 2688
▁炭 2689
▁戳 2690
▁颤 2691
▁禄 2692
▁菩 2693
▁崛 2694
▁驸 2695
▁佣 2696
▁眨 2697
▁聂 2698
▁乙 2699
▁拧 2700
▁嘻 2701
▁靳 2702
▁佟 2703
▁喵 2704
▁阎 2705
▁拢 2706
▁厘 2707
▁凰 2708
▁疤 2709
▁螺 2710
▁淇 2711
▁拎 2712
▁涩 2713
▁嗨 2714
▁魁 2715
▁薯 2716
▁歼 2717
▁沪 2718
▁筛 2719
▁谍 2720
▁揪 2721
▁刁 2722
▁秃 2723
▁谜 2724
▁肪 2725
▁撇 2726
▁绊 2727
▁逞 2728
▁滥 2729
▁寝 2730
▁麟 2731
▁奕 2732
▁侮 2733
▁喉 2734
▁柄 2735
▁荆 2736
▁撼 2737
▁窦 2738
▁姗 2739
▁乞 2740
▁艇 2741
▁竖 2742
▁剖 2743
▁嗽 2744
▁腕 2745
▁捂 2746
▁鸽 2747
▁刃 2748
▁弓 2749
▁粤 2750
▁辙 2751
▁梗 2752
▁茄 2753
▁泣 2754
▁茜 2755
▁驼 2756
▁倔 2757
▁冈 2758
▁啃 2759
▁蹄 2760
▁唧 2761
▁祈 2762
▁腺 2763
▁焰 2764
▁崽 2765
▁睿 2766
▁苛 2767
▁凿 2768
▁倭 2769
▁窍 2770
▁骤 2771
▁槛 2772
▁诏 2773
▁碳 2774
▁芽 2775
▁浆 2776
▁隶 2777
▁搂 2778
▁彬 2779
▁睦 2780
▁诀 2781
▁岔 2782
▁掺 2783
▁嚼 2784
▁殷 2785
▁吁 2786
▁啰 2787
▁亩 2788
▁侈 2789
▁纤 2790
▁倦 2791
▁揽 2792
▁媚 2793
▁莽 2794
▁潭 2795
▁赃 2796
▁睹 2797
▁脊 2798
▁逍 2799
▁淼 2800
▁沸 2801
▁峡 2802
▁眷 2803
▁屯 2804
▁仆 2805
▁璐 2806
▁雁 2807
▁澄 2808
▁渗 2809
▁咔 2810
▁啸 2811
▁怂 2812
▁娄 2813
▁惶 2814
▁锡 2815
▁恍 2816
▁秉 2817
▁猾 2818
▁挟 2819
▁舔 2820
▁弦 2821
▁阱 2822
▁俭 2823
▁嚣 2824
▁搓 2825
▁懈 2826
▁诡 2827
▁隙 2828
▁苟 2829
▁倘 2830
▁瘫 2831
▁扁 2832
▁鑫 2833
▁撩 2834
▁蓬 2835
▁铲 2836
▁峥 2837
▁巅 2838
▁葫 2839
▁膳 2840
▁狙 2841
▁晏 2842
▁祠 2843
▁峻 2844
▁尉 2845
▁毯 2846
▁沧 2847
▁熏 2848
▁咯 2849
▁株 2850
▁沐 2851
▁锣 2852
▁奎 2853
▁霄 2854
▁彦 2855
▁叭 2856
▁臻 2857
▁昔 2858
▁灶 2859
▁傍 2860
▁腥 2861
▁屑 2862
▁禾 2863
▁彰 2864
▁冉 2865
▁矫 2866
▁滞 2867
▁瘩 2868
▁匀 2869
▁椎 2870
▁槐 2871
▁岚 2872
▁跷 2873
▁剔 2874
▁倪 2875
▁盏 2876
▁泌 2877
▁灸 2878
▁隧 2879
▁函 2880
▁壤 2881
▁蹊 2882
▁剃 2883
▁拌 2884
▁葵 2885
▁琅 2886
▁炳 2887
▁跋 2888
▁瑾 2889
▁哩 2890
▁蔷 2891
▁鳌 2892
▁莺 2893
▁诵 2894
▁疙 2895
▁吱 2896
▁蓓 2897
▁绎 2898
▁匿 2899
▁铮 2900
▁怼 2901
▁踹 2902
▁嗅 2903
▁焚 2904
▁蝇 2905
▁躯 2906
▁祟 2907
▁橘 2908
▁韧 2909
▁辖 2910
▁砂 2911
▁粪 2912
▁擒 2913
▁诬 2914
▁黏 2915
▁衔 2916
▁溺 2917
▁蜘 2918
▁篷 2919
▁贿 2920
▁闫 2921
▁焕 2922
▁邢 2923
▁兹 2924
▁窖 2925
▁铸 2926
▁旬 2927
▁惭 2928
▁佬 2929
▁咚 2930
▁裴 2931
▁裳 2932
▁犀 2933
▁弘 2934
▁莓 2935
▁钏 2936
▁鄂 2937
▁伽 2938
▁陋 2939
▁鞠 2940
▁氪 2941
▁窜 2942
▁垒 2943
▁橙 2944
▁讳 2945
▁甥 2946
▁淫 2947
▁拱 2948
▁袱 2949
▁坨 2950
▁暧 2951
▁渺 2952
▁蕉 2953
▁晗 2954
▁茬 2955
▁盔 2956
▁蚕 2957
▁妓 2958
▁僻 2959
▁朽 2960
▁挚 2961
▁呛 2962
▁绅 2963
▁擎 2964
▁喇 2965
▁鳄 2966
▁巩 2967
▁遛 2968
▁蜗 2969
▁俯 2970
▁汹 2971
▁奠 2972
▁猩 2973
▁钙 2974
▁悍 2975
▁躬 2976
▁菱 2977
▁翘 2978
▁琉 2979
▁虏 2980
▁稼 2981
▁凄 2982
▁炕 2983
▁皂 2984
▁漱 2985
▁斋 2986
▁撂 2987
▁芭 2988
▁敛 2989
▁阮 2990
▁阀 2991
▁缚 2992
▁懦 2993
▁亨 2994
▁螃 2995
▁侥 2996
▁膨 2997
▁筝 2998
▁惟 2999
▁黛 3000
▁茨 3001
▁眯 3002
▁怠 3003
▁辐 3004
▁捎 3005
▁殴 3006
▁桓 3007
▁瞄 3008
▁冀 3009
▁雍 3010
▁酵 3011
▁霾 3012
▁檬 3013
▁哺 3014
▁裔 3015
▁兢 3016
▁烹 3017
▁麒 3018
▁绒 3019
▁丐 3020
▁娅 3021
▁钞 3022
▁垄 3023
▁笛 3024
▁赣 3025
▁蕊 3026
▁暮 3027
▁噪 3028
▁沮 3029
▁庇 3030
▁肋 3031
▁橡 3032
▁摁 3033
▁痘 3034
▁棘 3035
▁绷 3036
▁拂 3037
▁刨 3038
▁晾 3039
▁蹬 3040
▁鸥 3041
▁璇 3042
▁掠 3043
▁瘟 3044
▁俐 3045
▁糙 3046
▁骏 3047
▁牡 3048
▁撵 3049
▁沥 3050
▁嘘 3051
▁庶 3052
▁喧 3053
▁赁 3054
▁瞳 3055
▁涡 3056
▁迭 3057
▁肘 3058
▁颂 3059
▁埔 3060
▁觅 3061
▁珑 3062
▁跤 3063
▁朔 3064
▁詹 3065
▁暇 3066
▁梭 3067
▁惺 3068
▁甸 3069
▁怯 3070
▁坝 3071
▁聋 3072
▁闸 3073
▁赦 3074
▁屉 3075
▁吟 3076
▁凸 3077
▁拴 3078
▁堤 3079
▁斧 3080
▁矣 3081
▁呸 3082
▁啼 3083
▁韬 3084
▁钧 3085
▁坞 3086
▁纺 3087
▁氢 3088
▁嵩 3089
▁镯 3090
▁檐 3091
▁髓 3092
▁涕 3093
▁剁 3094
▁稽 3095
▁烨 3096
▁钮 3097
▁闽 3098
▁仕 3099
▁驯 3100
▁吭 3101
▁漓 3102
▁眸 3103
▁鞅 3104
▁煞 3105
▁枢 3106
▁昕 3107
▁畔 3108
▁矶 3109
▁疹 3110
▁呱 3111
▁吏 3112
▁熄 3113
▁泻 3114
▁蛤 3115
▁拙 3116
▁甫 3117
▁禽 3118
▁厮 3119
▁乍 3120
▁蝉 3121
▁撬 3122
▁嘀 3123
▁鲨 3124
▁衅 3125
▁萱 3126
▁霹 3127
▁旷 3128
▁坷 3129
▁辫 3130
▁蟆 3131
▁眶 3132
▁呜 3133
▁猬 3134
▁嬷 3135
▁靶 3136
▁萎 3137
▁雳 3138
▁煲 3139
▁溯 3140
▁狈 3141
▁蚀 3142
▁滤 3143
▁恙 3144
▁瑛 3145
▁嫣 3146
▁栓 3147
▁驿 3148
▁碟 3149
▁祷 3150
▁犊 3151
▁哆 3152
▁宛 3153
▁灼 3154
▁榨 3155
▁寥 3156
▁翟 3157
▁栗 3158
▁滔 3159
▁馋 3160
▁杖 3161
▁茉 3162
▁庐 3163
▁饲 3164
▁隋 3165
▁旱 3166
▁崎 3167
▁颅 3168
▁焉 3169
▁篱 3170
▁晟 3171
▁墩 3172
▁扳 3173
▁咎 3174
▁竿 3175
▁僚 3176
▁霆 3177
▁溶 3178
▁俏 3179
▁堕 3180
▁冕 3181
▁叩 3182
▁绰 3183
▁洽 3184
▁襄 3185
▁蛊 3186
▁缅 3187
▁侨 3188
▁伶 3189
▁蕴 3190
▁酥 3191
▁坂 3192
▁庚 3193
▁拇 3194
▁卒 3195
▁诛 3196
▁禧 3197
▁瓢 3198
▁扉 3199
▁饷 3200
▁锯 3201
▁诅 3202
▁烘 3203
▁浏 3204
▁榆 3205
▁痰 3206
▁窥 3207
▁鲸 3208
▁捋 3209
▁戎 3210
▁笋 3211
▁诫 3212
▁璋 3213
▁珈 3214
▁癫 3215
▁囤 3216
▁厥 3217
▁癖 3218
▁芹 3219
▁翩 3220
▁匣 3221
▁噬 3222
▁栖 3223
▁蝎 3224
▁锄 3225
▁玺 3226
▁疮 3227
▁槿 3228
▁猥 3229
▁缕 3230
▁蔑 3231
▁汝 3232
▁珂 3233
▁撮 3234
▁坪 3235
▁蒲 3236
▁撰 3237
▁倚 3238
▁嗷 3239
▁荧 3240
▁芙 3241
▁豚 3242
▁筱 3243
▁敖 3244
▁猝 3245
▁孵 3246
▁徊 3247
▁弈 3248
▁赘 3249
▁辗 3250
▁徘 3251
▁烙 3252
▁娲 3253
▁嚎 3254
▁迢 3255
▁绥 3256
▁羁 3257
▁屌 3258
▁铅 3259
▁澎 3260
▁嬛 3261
▁煽 3262
▁饵 3263
▁逾 3264
▁晦 3265
▁虞 3266
▁筐 3267
▁抒 3268
▁哧 3269
▁瑕 3270
▁醇 3271
▁祀 3272
▁岐 3273
▁潼 3274
▁惚 3275
▁苑 3276
▁靡 3277
▁菠 3278
▁赡 3279
▁惰 3280
▁梓 3281
▁铛 3282
▁澈 3283
▁莞 3284
▁呕 3285
▁邝 3286
▁驭 3287
▁砰 3288
▁轼 3289
▁慷 3290
▁窒 3291
▁绞 3292
▁絮 3293
▁虔 3294
▁惮 3295
▁柬 3296
▁蹋 3297
▁羲 3298
▁拣 3299
▁嗡 3300
▁隘 3301
▁卤 3302
▁帜 3303
▁雌 3304
▁唾 3305
▁邹 3306
▁俑 3307
▁咏 3308
▁婪 3309
▁粟 3310
▁碾 3311
▁崭 3312
▁钝 3313
▁彝 3314
▁陡 3315
▁谛 3316
▁秤 3317
▁淌 3318
▁炊 3319
▁磅 3320
▁鲤 3321
▁羹 3322
▁殉 3323
▁曰 3324
▁阐 3325
▁萤 3326
▁鬟 3327
▁拭 3328
▁沁 3329
▁滇 3330
▁梧 3331
▁瞻 3332
▁烁 3333
▁淤 3334
▁凹 3335
▁撸 3336
▁祺 3337
▁腌 3338
▁缪 3339
▁棕 3340
▁痊 3341
▁忑 3342
▁矜 3343
▁柠 3344
▁忐 3345
▁讹 3346
▁瀚 3347
▁尧 3348
▁芊 3349
▁昼 3350
▁憨 3351
▁鳞 3352
▁匮 3353
▁鸳 3354
▁鸯 3355
▁湃 3356
▁馍 3357
▁屿 3358
▁沽 3359
▁栾 3360
▁蝠 3361
▁绛 3362
▁窘 3363
▁巍 3364
▁悯 3365
▁焊 3366
▁浊 3367
▁谴 3368
▁娴 3369
▁畴 3370
▁湛 3371
▁螂 3372
▁韭 3373
▁哮 3374
▁拷 3375
▁攥 3376
▁凛 3377
▁颓 3378
▁恺 3379
▁粑 3380
▁襟 3381
▁蝙 3382
▁洼 3383
▁笃 3384
▁骁 3385
▁渝 3386
▁酌 3387
▁殃 3388
▁乒 3389
▁臊 3390
▁疵 3391
▁谬 3392
▁诧 3393
▁袄 3394
▁锈 3395
▁膛 3396
▁瘸 3397
▁嫖 3398
▁梢 3399
▁棱 3400
▁沼 3401
▁嚓 3402
▁耸 3403
▁喳 3404
▁涮 3405
▁橱 3406
▁舵 3407
▁瞩 3408
▁腑 3409
▁岑 3410
▁檀 3411
▁痪 3412
▁墟 3413
▁蔚 3414
▁捍 3415
▁徙 3416
▁棣 3417
▁猖 3418
▁恬 3419
▁嫦 3420
▁掷 3421
▁饪 3422
▁掂 3423
▁噔 3424
▁恤 3425
▁叱 3426
▁芷 3427
▁楷 3428
▁弩 3429
▁茧 3430
▁镶 3431
▁诠 3432
▁匡 3433
▁咙 3434
▁亵 3435
▁擂 3436
▁杞 3437
▁乓 3438
▁渤 3439
▁藉 3440
▁渭 3441
▁憔 3442
▁禹 3443
▁睐 3444
▁抉 3445
▁趾 3446
▁茸 3447
▁忒 3448
▁悴 3449
▁纬 3450
▁浚 3451
▁懊 3452
▁溅 3453
▁琛 3454
▁遏 3455
▁靴 3456
▁戮 3457
▁翎 3458
▁谕 3459
▁濒 3460
▁锵 3461
▁嬉 3462
▁籽 3463
▁叼 3464
▁殆 3465
▁苔 3466
▁灏 3467
▁嗖 3468
▁俪 3469
▁嗜 3470
▁冶 3471
▁亢 3472
▁磋 3473
▁汀 3474
▁讪 3475
▁萃 3476
▁紊 3477
▁菁 3478
▁镑 3479
▁脯 3480
▁缆 3481
▁婊 3482
▁赂 3483
▁哉 3484
▁蕃 3485
▁昱 3486
▁舜 3487
▁迄 3488
▁嚏 3489
▁蜓 3490
▁黔 3491
▁犟 3492
▁汐 3493
▁嗣 3494
▁昵 3495
▁唆 3496
▁蛾 3497
▁黯 3498
▁绯 3499
▁瀑 3500
▁掖 3501
▁狩 3502
▁憬 3503
▁崴 3504
▁髦 3505
▁褪 3506
▁酝 3507
▁弧 3508
▁咄 3509
▁吝 3510
▁馄 3511
▁娩 3512
▁袒 3513
▁窿 3514
▁玮 3515
▁蜻 3516
▁阙 3517
▁篡 3518
▁邯 3519
▁朦 3520
▁邑 3521
▁粽 3522
▁捶 3523
▁喃 3524
▁嫔 3525
▁钗 3526
▁穗 3527
▁寐 3528
▁骼 3529
▁胭 3530
▁噎 3531
▁碱 3532
▁荤 3533
▁矢 3534
▁笙 3535
▁芥 3536
▁厄 3537
▁廓 3538
▁扼 3539
▁毋 3540
▁糯 3541
▁惋 3542
▁纶 3543
▁碜 3544
▁胧 3545
▁懿 3546
▁沏 3547
▁偃 3548
▁痹 3549
▁慑 3550
▁鹦 3551
▁娠 3552
▁绢 3553
▁铐 3554
▁傀 3555
▁饨 3556
▁孜 3557
▁儡 3558
▁孰 3559
▁焱 3560
▁幌 3561
▁峭 3562
▁伎 3563
▁椰 3564
▁譬 3565
▁藕 3566
▁貂 3567
▁坍 3568
▁鞍 3569
▁铝 3570
▁蘸 3571
▁猿 3572
▁炙 3573
▁琊 3574
▁峙 3575
▁硝 3576
▁幂 3577
▁钰 3578
▁眩 3579
▁亥 3580
▁鹉 3581
▁簇 3582
▁簧 3583
▁睫 3584
▁斟 3585
▁颐 3586
▁薰 3587
▁癞 3588
▁祛 3589
▁缎 3590
▁咣 3591
▁燎 3592
▁簸 3593
▁簿 3594
▁绚 3595
▁邋 3596
▁稷 3597
▁嵌 3598
▁肮 3599
▁闵 3600
▁辍 3601
▁枸 3602
▁撅 3603
▁苇 3604
▁曙 3605
▁悼 3606
▁汶 3607
▁匕 3608
▁腮 3609
▁皖 3610
▁汲 3611
▁琶 3612
▁鼹 3613
▁喀 3614
▁礁 3615
▁汕 3616
▁颊 3617
▁怔 3618
▁釜 3619
▁砌 3620
▁畸 3621
▁峨 3622
▁鹃 3623
▁奄 3624
▁骡 3625
▁莘 3626
▁斐 3627
▁芈 3628
▁荔 3629
▁蟑 3630
▁缇 3631
▁犒 3632
▁宓 3633
▁汾 3634
▁憧 3635
▁沌 3636
▁宦 3637
▁咤 3638
▁攘 3639
▁吆 3640
▁梵 3641
▁漩 3642
▁阂 3643
▁吒 3644
▁翊 3645
▁芜 3646
▁秧 3647
▁缔 3648
▁晌 3649
▁剐 3650
▁芋 3651
▁蜕 3652
▁彷 3653
▁牟 3654
▁徨 3655
▁诲 3656
▁臀 3657
▁杵 3658
▁荫 3659
▁蹿 3660
▁豌 3661
▁榄 3662
▁迂 3663
▁琵 3664
▁拗 3665
▁帷 3666
▁楞 3667
▁嘶 3668
▁橄 3669
▁胺 3670
▁圭 3671
▁砚 3672
▁藻 3673
▁凋 3674
▁殡 3675
▁啄 3676
▁褒 3677
▁嗝 3678
▁嫡 3679
▁恃 3680
▁濡 3681
▁缜 3682
▁孺 3683
▁泸 3684
▁妊 3685
▁衩 3686
▁驹 3687
▁榻 3688
▁腆 3689
▁鹂 3690
▁箍 3691
▁璧 3692
▁遢 3693
▁悚 3694
▁熔 3695
▁弛 3696
▁诋 3697
▁鹭 3698
▁羚 3699
▁嘚 3700
▁骸 3701
▁瞿 3702
▁铠 3703
▁瘪 3704
▁邸 3705
▁痨 3706
▁辘 3707
▁屹 3708
▁忏 3709
▁浒 3710
▁钊 3711
▁潦 3712
▁肴 3713
▁怅 3714
▁蚯 3715
▁茵 3716
▁胚 3717
▁蚓 3718
▁戬 3719
▁瘀 3720
▁翡 3721
▁恪 3722
▁卉 3723
▁雏 3724
▁祯 3725
▁蝌 3726
▁谏 3727
▁钵 3728
▁蚪 3729
▁馊 3730
▁嗒 3731
▁寅 3732
▁犁 3733
▁纣 3734
▁淆 3735
▁娼 3736
▁锥 3737
▁啬 3738
▁晖 3739
▁夯 3740
▁竣 3741
▁丙 3742
▁褚 3743
▁氨 3744
▁轧 3745
▁褥 3746
▁褂 3747
▁钳 3748
▁疡 3749
▁竺 3750
▁轲 3751
▁淞 3752
▁摹 3753
▁胤 3754
▁鳅 3755
▁珀 3756
▁匾 3757
▁偕 3758
▁觑 3759
▁扈 3760
▁傣 3761
▁阑 3762
▁枷 3763
▁绫 3764
▁烊 3765
▁柚 3766
▁腼 3767
▁珺 3768
▁怦 3769
▁碉 3770
▁峪 3771
▁缀 3772
▁裘 3773
▁俸 3774
▁羯 3775
▁姊 3776
▁疟 3777
▁砺 3778
▁嘣 3779
▁釉 3780
▁溥 3781
▁盎 3782
▁熠 3783
▁垢 3784
▁胰 3785
▁哽 3786
▁槟 3787
▁摞 3788
▁囧 3789
▁遁 3790
▁痞 3791
▁熹 3792
▁忡 3793
▁稠 3794
▁顷 3795
▁渎 3796
▁瑚 3797
▁卯 3798
▁炅 3799
▁烽 3800
▁瞑 3801
▁褶 3802
▁硫 3803
▁嘈 3804
▁壹 3805
▁悖 3806
▁酪 3807
▁跺 3808
▁阜 3809
▁帛 3810
▁蟒 3811
▁漪 3812
▁迦 3813
▁蝗 3814
▁咀 3815
▁谤 3816
▁辕 3817
▁绮 3818
▁睬 3819
▁搀 3820
▁裆 3821
▁鳖 3822
▁囡 3823
▁羔 3824
▁痣 3825
▁滕 3826
▁佘 3827
▁樟 3828
▁韶 3829
▁赈 3830
▁劾 3831
▁霓 3832
▁唏 3833
▁脐 3834
▁闰 3835
▁沓 3836
▁瓮 3837
▁笠 3838
▁篓 3839
▁洱 3840
▁涅 3841
▁诽 3842
▁暄 3843
▁蚱 3844
▁栅 3845
▁攸 3846
▁酣 3847
▁阪 3848
▁囔 3849
▁榕 3850
▁婧 3851
▁骇 3852
▁陨 3853
▁沂 3854
▁憎 3855
▁壕 3856
▁磷 3857
▁璀 3858
▁璨 3859
▁醺 3860
▁惬 3861
▁喋 3862
▁瘁 3863
▁炽 3864
▁羿 3865
▁簪 3866
▁褐 3867
▁驮 3868
▁冽 3869
▁芮 3870
▁辄 3871
▁咆 3872
▁渍 3873
▁觐 3874
▁蛰 3875
▁炷 3876
▁驷 3877
▁帚 3878
▁蜷 3879
▁邂 3880
▁逅 3881
▁秽 3882
▁琰 3883
▁缭 3884
▁俨 3885
▁龌 3886
▁龊 3887
▁涟 3888
▁掇 3889
▁噼 3890
▁炬 3891
▁哔 3892
▁佯 3893
▁粱 3894
▁霁 3895
▁夭 3896
▁鱿 3897
▁陇 3898
▁擀 3899
▁馁 3900
▁盹 3901
▁瞥 3902
▁壑 3903
▁焖 3904
▁蚌 3905
▁蛟 3906
▁蚝 3907
▁囱 3908
▁脓 3909
▁抿 3910
▁蒿 3911
▁飓 3912
▁渲 3913
▁宸 3914
▁酗 3915
▁荻 3916
▁弑 3917
▁缥 3918
▁偎 3919
▁宕 3920
▁耘 3921
▁溉 3922
▁瘴 3923
▁涝 3924
▁瞌 3925
▁垛 3926
▁咿 3927
▁垦 3928
▁苞 3929
▁缈 3930
▁惆 3931
▁町 3932
▁鹑 3933
▁汛 3934
▁抡 3935
▁慵 3936
▁耙 3937
▁砥 3938
▁浣 3939
▁噱 3940
▁孬 3941
▁札 3942
▁弼 3943
▁萦 3944
▁挞 3945
▁泾 3946
▁钾 3947
▁镳 3948
▁酋 3949
▁讷 3950
▁舶 3951
▁圃 3952
▁汴 3953
▁戾 3954
▁昀 3955
▁穹 3956
▁锂 3957
▁镀 3958
▁眺 3959
▁捺 3960
▁猕 3961
▁阚 3962
▁骋 3963
▁悸 3964
▁蜚 3965
▁咩 3966
▁讥 3967
▁篆 3968
▁鸠 3969
▁哐 3970
▁幢 3971
▁锚 3972
▁螳 3973
▁徇 3974
▁翱 3975
▁蔼 3976
▁踞 3977
▁蔗 3978
▁漉 3979
▁枭 3980
▁衲 3981
▁漳 3982
▁漾 3983
▁歆 3984
▁烬 3985
▁曳 3986
▁岌 3987
▁孚 3988
▁桨 3989
▁戛 3990
▁呲 3991
▁娓 3992
▁箫 3993
▁獭 3994
▁芃 3995
▁涓 3996
▁戍 3997
▁摒 3998
▁轱 3999
▁踝 4000
▁沱 4001
▁锢 4002
▁抨 4003
▁堰 4004
▁昙 4005
▁鹌 4006
▁迸 4007
▁蔻 4008
▁龈 4009
▁泯 4010
▁骛 4011
▁痔 4012
▁泵 4013
▁淄 4014
<unk> 4015
, 4016
s 4017
. 4018
▁the 4019
▁to 4020
▁of 4021
' 4022
▁and 4023
▁a 4024
▁I 4025
▁that 4026
▁in 4027
▁you 4028
▁it 4029
t 4030
▁And 4031
▁is 4032
ed 4033
▁was 4034
ing 4035
▁for 4036
d 4037
▁we 4038
▁be 4039
▁this 4040
▁with 4041
▁on 4042
re 4043
▁have 4044
▁he 4045
? 4046
▁not 4047
▁are 4048
▁as 4049
ly 4050
▁they 4051
▁so 4052
▁at 4053
m 4054
▁The 4055
▁his 4056
▁like 4057
▁had 4058
▁know 4059
▁So 4060
▁But 4061
▁all 4062
▁do 4063
▁what 4064
y 4065
▁can 4066
▁about 4067
▁one 4068
▁me 4069
- 4070
▁from 4071
▁or 4072
▁my 4073
er 4074
▁there 4075
n 4076
▁by 4077
▁an 4078
▁her 4079
▁It 4080
▁your 4081
▁just 4082
▁but 4083
▁A 4084
▁out 4085
▁were 4086
▁up 4087
▁if 4088
▁You 4089
▁people 4090
▁think 4091
e 4092
▁she 4093
▁would 4094
ve 4095
▁their 4096
r 4097
▁them 4098
▁who 4099
▁which 4100
▁more 4101
ll 4102
▁He 4103
▁when 4104
▁our 4105
▁him 4106
▁will 4107
▁been 4108
▁very 4109
▁We 4110
▁some 4111
▁time 4112
▁has 4113
▁get 4114
al 4115
▁no 4116
▁going 4117
▁said 4118
▁then 4119
▁really 4120
▁don 4121
▁go 4122
▁how 4123
▁into 4124
▁That 4125
▁other 4126
▁now 4127
▁see 4128
es 4129
▁these 4130
▁because 4131
in 4132
l 4133
▁right 4134
▁here 4135
▁two 4136
▁way 4137
▁could 4138
▁us 4139
▁re 4140
▁want 4141
▁over 4142
c 4143
▁say 4144
! 4145
le 4146
▁Ah 4147
▁s 4148
▁They 4149
▁back 4150
▁where 4151
a 4152
o 4153
▁In 4154
▁also 4155
▁those 4156
▁kind 4157
▁ah 4158
▁things 4159
▁make 4160
g 4161
p 4162
▁much 4163
▁little 4164
▁than 4165
▁did 4166
▁good 4167
▁first 4168
w 4169
▁any 4170
or 4171
▁well 4172
▁down 4173
▁man 4174
▁Um 4175
▁new 4176
▁work 4177
▁This 4178
▁lot 4179
b 4180
▁something 4181
▁There 4182
ion 4183
ri 4184
▁What 4185
ation 4186
▁thing 4187
S 4188
▁take 4189
▁only 4190
th 4191
▁de 4192
▁come 4193
an 4194
ar 4195
▁got 4196
▁being 4197
on 4198
▁She 4199
▁If 4200
▁great 4201
▁through 4202
▁even 4203
ck 4204
▁most 4205
▁should 4206
▁look 4207
▁day 4208
u 4209
▁actually 4210
▁need 4211
▁before 4212
li 4213
▁un 4214
▁many 4215
able 4216
▁life 4217
▁world 4218
▁years 4219
ity 4220
▁part 4221
ers 4222
h 4223
▁made 4224
▁three 4225
▁might 4226
ne 4227
ic 4228
ro 4229
i 4230
▁after 4231
▁own 4232
la 4233
▁different 4234
▁again 4235
▁um 4236
en 4237
▁long 4238
▁To 4239
il 4240
▁mean 4241
ur 4242
▁never 4243
▁may 4244
▁c 4245
▁point 4246
ive 4247
▁off 4248
▁still 4249
▁use 4250
ment 4251
▁let 4252
ra 4253
▁thought 4254
▁too 4255
it 4256
▁same 4257
▁put 4258
▁every 4259
f 4260
▁came 4261
▁As 4262
▁love 4263
ter 4264
▁last 4265
ate 4266
de 4267
▁When 4268
ness 4269
▁Yeah 4270
se 4271
▁give 4272
el 4273
▁S 4274
▁For 4275
▁show 4276
ce 4277
▁am 4278
▁old 4279
▁doing 4280
▁Now 4281
▁around 4282
▁e 4283
ent 4284
▁end 4285
▁find 4286
▁such 4287
▁sort 4288
na 4289
▁tell 4290
te 4291
▁place 4292
us 4293
▁five 4294
▁went 4295
ta 4296
lo 4297
▁always 4298
k 4299
▁talk 4300
▁Well 4301
ma 4302
▁yeah 4303
▁another 4304
et 4305
ch 4306
▁year 4307
▁feel 4308
x 4309
▁didn 4310
▁why 4311
ry 4312
▁Which 4313
▁home 4314
ol 4315
est 4316
▁Then 4317
▁thousand 4318
▁under 4319
me 4320
▁question 4321
▁away 4322
▁found 4323
▁help 4324
ia 4325
▁does 4326
▁hundred 4327
z 4328
▁course 4329
man 4330
▁must 4331
▁men 4332
▁dis 4333
▁o 4334
▁upon 4335
ies 4336
▁house 4337
▁next 4338
ge 4339
▁hand 4340
▁head 4341
▁done 4342
▁called 4343
▁start 4344
▁con 4345
id 4346
▁four 4347
▁better 4348
▁No 4349
ant 4350
▁g 4351
▁bit 4352
▁person 4353
as 4354
is 4355
▁sure 4356
▁Or 4357
▁twenty 4358
ir 4359
▁big 4360
▁fact 4361
ke 4362
less 4363
▁co 4364
▁name 4365
tic 4366
▁mind 4367
▁side 4368
▁few 4369
▁ever 4370
▁How 4371
▁each 4372
▁able 4373
▁ten 4374
ist 4375
▁Like 4376
ng 4377
ted 4378
▁gonna 4379
sh 4380
▁between 4381
▁moment 4382
▁hard 4383
▁mo 4384
ting 4385
▁without 4386
▁pro 4387
▁important 4388
▁E 4389
▁call 4390
▁both 4391
▁whole 4392
▁state 4393
▁car 4394
▁face 4395
▁la 4396
▁money 4397
mp 4398
ci 4399
ty 4400
▁school 4401
ver 4402
to 4403
▁real 4404
▁set 4405
▁today 4406
▁p 4407
▁best 4408
▁far 4409
ine 4410
▁po 4411
▁high 4412
▁ra 4413
▁Because 4414
▁having 4415
▁left 4416
ie 4417
▁B 4418
at 4419
ful 4420
▁f 4421
ling 4422
ary 4423
ton 4424
ul 4425
▁himself 4426
▁number 4427
▁once 4428
▁night 4429
▁looking 4430
▁li 4431
son 4432
▁All 4433
▁keep 4434
▁book 4435
▁bo 4436
▁war 4437
▁P 4438
co 4439
pe 4440
mo 4441
▁god 4442
▁together 4443
▁ba 4444
▁second 4445
led 4446
▁saw 4447
▁data 4448
▁case 4449
▁young 4450
▁enough 4451
▁k 4452
▁One 4453
▁change 4454
▁My 4455
▁human 4456
▁against 4457
▁anything 4458
▁while 4459
▁quite 4460
▁room 4461
▁C 4462
age 4463
▁Who 4464
▁Yes 4465
ian 4466
vi 4467
▁idea 4468
▁used 4469
▁public 4470
▁took 4471
▁nothing 4472
▁With 4473
▁power 4474
▁light 4475
▁pre 4476
▁live 4477
▁country 4478
▁system 4479
▁water 4480
▁believe 4481
▁story 4482
▁open 4483
ence 4484
ance 4485
▁understand 4486
▁care 4487
▁example 4488
lu 4489
▁talking 4490
▁b 4491
ated 4492
▁vi 4493
▁though 4494
▁da 4495
▁doesn 4496
um 4497
▁mr 4498
▁six 4499
ho 4500
▁told 4501
▁getting 4502
ating 4503
▁law 4504
mb 4505
▁says 4506
▁seen 4507
▁experience 4508
▁trying 4509
▁white 4510
▁order 4511
▁Oh 4512
▁heart 4513
▁Thank 4514
▁read 4515
▁play 4516
ish 4517
▁heard 4518
po 4519
▁ro 4520
nt 4521
▁eyes 4522
▁become 4523
▁everything 4524
▁sense 4525
▁per 4526
▁coming 4527
ha 4528
▁matter 4529
▁week 4530
▁hope 4531
▁At 4532
▁business 4533
▁Re 4534
▁Let 4535
im 4536
▁en 4537
▁black 4538
▁ma 4539
▁family 4540
▁yet 4541
▁hear 4542
▁line 4543
ti 4544
▁Do 4545
▁started 4546
ism 4547
▁saying 4548
▁pretty 4549
▁support 4550
mi 4551
▁Not 4552
▁ca 4553
ru 4554
▁di 4555
▁wanted 4556
▁probably 4557
▁form 4558
▁ask 4559
no 4560
▁knew 4561
▁try 4562
▁looked 4563
▁father 4564
▁maybe 4565
▁process 4566
▁st 4567
▁small 4568
▁na 4569
ial 4570
min 4571
be 4572
▁making 4573
▁already 4574
nd 4575
▁working 4576
▁d 4577
▁asked 4578
▁almost 4579
▁government 4580
▁percent 4581
▁shall 4582
▁word 4583
▁turn 4584
▁com 4585
▁door 4586
▁du 4587
▁children 4588
▁run 4589
▁ho 4590
bo 4591
▁reason 4592
▁remember 4593
▁less 4594
▁days 4595
▁often 4596
▁ex 4597
▁His 4598
am 4599
ous 4600
▁bu 4601
▁else 4602
ring 4603
▁video 4604
up 4605
ad 4606
▁job 4607
▁mother 4608
▁Okay 4609
▁Where 4610
▁half 4611
▁F 4612
▁problem 4613
▁city 4614
▁women 4615
per 4616
▁means 4617
▁myself 4618
▁Be 4619
▁answer 4620
ni 4621
▁free 4622
▁information 4623
do 4624
op 4625
▁report 4626
▁Why 4627
▁sta 4628
▁present 4629
▁american 4630
▁bad 4631
▁health 4632
▁Of 4633
▁stuff 4634
ally 4635
ving 4636
▁woman 4637
▁words 4638
▁On 4639
ca 4640
ard 4641
▁land 4642
▁close 4643
▁community 4644
▁whether 4645
▁felt 4646
▁miss 4647
▁thank 4648
▁ta 4649
▁mar 4650
▁since 4651
va 4652
▁ha 4653
▁seven 4654
▁voice 4655
ut 4656
▁large 4657
▁sp 4658
▁bring 4659
▁true 4660
▁body 4661
▁program 4662
da 4663
▁least 4664
▁thirty 4665
▁ago 4666
▁full 4667
▁T 4668
▁level 4669
▁friend 4670
▁president 4671
▁leave 4672
▁times 4673
▁boy 4674
▁within 4675
▁across 4676
▁t 4677
di 4678
v 4679
▁eight 4680
▁rest 4681
▁social 4682
ugh 4683
om 4684
▁fire 4685
▁soon 4686
▁Just 4687
▁questions 4688
▁act 4689
▁ti 4690
ward 4691
mon 4692
▁someone 4693
▁until 4694
▁O 4695
▁lo 4696
▁happened 4697
che 4698
▁air 4699
▁short 4700
▁certain 4701
▁past 4702
▁move 4703
ther 4704
▁later 4705
ff 4706
▁research 4707
pa 4708
▁morning 4709
▁view 4710
▁interesting 4711
ig 4712
▁mu 4713
▁plan 4714
ious 4715
▁thinking 4716
▁along 4717
▁company 4718
▁le 4719
▁em 4720
king 4721
land 4722
▁death 4723
▁St 4724
▁child 4725
▁mi 4726
ber 4727
ow 4728
▁using 4729
▁comes 4730
▁themselves 4731
▁gave 4732
rs 4733
▁hi 4734
ding 4735
▁states 4736
gg 4737
ph 4738
▁sa 4739
▁strong 4740
▁history 4741
und 4742
▁court 4743
▁imp 4744
▁comp 4745
▁G 4746
ster 4747
▁seemed 4748
▁art 4749
▁students 4750
▁Ma 4751
▁dollars 4752
tch 4753
bu 4754
▁ri 4755
les 4756
▁app 4757
▁pi 4758
▁won 4759
ld 4760
way 4761
▁page 4762
go 4763
ba 4764
▁ 4765
▁De 4766
▁rather 4767
▁pe 4768
▁group 4769
▁bi 4770
▁during 4771
ten 4772
lic 4773
▁building 4774
▁U 4775
▁space 4776
▁dr 4777
▁general 4778
▁game 4779
▁team 4780
▁deal 4781
▁sha 4782
▁brain 4783
▁possible 4784
▁bar 4785
▁project 4786
tion 4787
▁clear 4788
▁turned 4789
▁control 4790
nk 4791
▁ju 4792
▁Right 4793
▁se 4794
ac 4795
▁given 4796
▁figure 4797
▁red 4798
▁speak 4799
▁happen 4800
▁behind 4801
▁ne 4802
▁yourself 4803
▁type 4804
▁friends 4805
▁began 4806
▁hands 4807
▁cause 4808
▁Some 4809
▁piece 4810
▁post 4811
▁gone 4812
▁test 4813
▁future 4814
rn 4815
▁feeling 4816
▁fifty 4817
▁stay 4818
▁lu 4819
▁early 4820
▁science 4821
▁sound 4822
▁brought 4823
▁king 4824
dy 4825
▁sometimes 4826
▁sea 4827
▁front 4828
ities 4829
▁top 4830
▁Was 4831
▁taken 4832
ud 4833
pi 4834
▁These 4835
▁yes 4836
▁million 4837
▁goes 4838
▁fear 4839
▁girl 4840
▁learn 4841
▁record 4842
▁pay 4843
▁conversation 4844
▁sub 4845
cu 4846
▁va 4847
▁either 4848
▁deep 4849
▁taking 4850
▁food 4851
ure 4852
con 4853
▁itself 4854
▁product 4855
▁wish 4856
▁couple 4857
▁oh 4858
os 4859
▁sign 4860
▁star 4861
▁By 4862
bb 4863
line 4864
▁near 4865
▁break 4866
ak 4867
▁particular 4868
▁music 4869
▁wrong 4870
ator 4871
▁Here 4872
hi 4873
fi 4874
ions 4875
end 4876
▁table 4877
▁pass 4878
▁language 4879
▁terms 4880
▁Said 4881
▁whatever 4882
▁forward 4883
▁age 4884
▁value 4885
▁create 4886
▁board 4887
▁write 4888
tter 4889
▁wasn 4890
▁became 4891
▁fall 4892
ized 4893
▁al 4894
ot 4895
▁After 4896
▁letter 4897
▁ga 4898
▁makes 4899
▁ru 4900
ach 4901
▁everyone 4902
▁guys 4903
▁su 4904
▁build 4905
▁self 4906
▁effect 4907
▁gra 4908
▁service 4909
▁tra 4910
em 4911
ler 4912
▁hu 4913
▁An 4914
▁stop 4915
▁living 4916
▁guess 4917
fa 4918
▁ways 4919
▁step 4920
▁common 4921
der 4922
fe 4923
▁basically 4924
▁Even 4925
▁nine 4926
▁known 4927
▁sun 4928
bi 4929
▁je 4930
▁ground 4931
▁single 4932
ap 4933
▁cannot 4934
▁interest 4935
▁son 4936
▁university 4937
ite 4938
▁john 4939
▁low 4940
▁wa 4941
▁seems 4942
▁everybody 4943
ical 4944
ga 4945
▁fa 4946
▁study 4947
ize 4948
▁national 4949
nce 4950
▁earth 4951
▁among 4952
▁stand 4953
▁forty 4954
ning 4955
ron 4956
▁w 4957
▁add 4958
▁poor 4959
▁send 4960
▁Mr 4961
our 4962
▁pa 4963
ep 4964
side 4965
▁lost 4966
ign 4967
▁Go 4968
▁somebody 4969
▁el 4970
▁nature 4971
▁united 4972
M 4973
T 4974
E 4975
I 4976
q 4977
j 4978
A 4979
N 4980
O 4981
R 4982
H 4983
D 4984
L 4985
Q 4986
Y 4987
U 4988
C 4989
W 4990
G 4991
X 4992
F 4993
P 4994
B 4995
V 4996
K 4997
Z 4998
J 4999
